/**
******************************************************************************
* @file    nnactor_data.c
* @author  AST Embedded Analytics Research Platform
* @date    Thu Jun  3 21:00:26 2021
* @brief   AI Tool Automatic Code Generator for Embedded NN computing
******************************************************************************
* @attention
*
* Copyright (c) 2021 STMicroelectronics.
* All rights reserved.
*
* This software component is licensed by ST under Ultimate Liberty license
* SLA0044, the "License"; You may not use this file except in compliance with
* the License. You may obtain a copy of the License at:
*                             www.st.com/SLA0044
*
******************************************************************************
*/

#include "nnactor_data.h"

ai_handle ai_nnactor_data_weights_get(void)
{
  AI_ALIGNED(32)
  static const ai_u8 s_nnactor_weights[1288] = {
    0xc8, 0x50, 0xc4, 0xbd, 0x0e, 0x60, 0x11, 0xbe, 0x21, 0xaa,
    0x62, 0x3f, 0x8b, 0xc1, 0xcd, 0x3d, 0x31, 0x59, 0x37, 0xbf,
    0x19, 0x9c, 0x27, 0x3e, 0x80, 0xce, 0x84, 0xbb, 0x80, 0x12,
    0x4f, 0xbe, 0x3b, 0x8f, 0x36, 0xbf, 0x41, 0xd5, 0xfa, 0x3d,
    0x5d, 0x23, 0x31, 0xbf, 0x6f, 0x7e, 0x41, 0x3e, 0x9e, 0x46,
    0x82, 0x3f, 0x51, 0xcd, 0x63, 0x3e, 0x4c, 0x18, 0x98, 0xbd,
    0x1c, 0xca, 0xbf, 0xbd, 0xec, 0x2e, 0xb3, 0x3f, 0x9f, 0x82,
    0x20, 0xbe, 0xa6, 0xf9, 0x93, 0x3c, 0x80, 0x2c, 0x78, 0xbe,
    0x79, 0x79, 0x13, 0x3f, 0x64, 0xf1, 0x6c, 0xbd, 0xca, 0x33,
    0x82, 0xbe, 0xc2, 0x95, 0x97, 0xbd, 0xf8, 0xa4, 0x28, 0x3d,
    0x2e, 0x2e, 0x2c, 0xbe, 0x20, 0xef, 0x50, 0xbd, 0x12, 0x5a,
    0x0c, 0xbe, 0x10, 0x5f, 0x45, 0xbe, 0x98, 0x3f, 0xf5, 0x3d,
    0xe6, 0x96, 0xaf, 0xbd, 0x20, 0x16, 0x1a, 0xbd, 0xdc, 0x77,
    0xa6, 0x3f, 0x1e, 0x75, 0x12, 0xbe, 0x96, 0x12, 0x2b, 0x3f,
    0x1a, 0x85, 0x79, 0x3d, 0x22, 0x68, 0x49, 0x3d, 0x21, 0x1f,
    0x3a, 0xbe, 0xbb, 0xd6, 0x59, 0x3f, 0x4a, 0x23, 0x01, 0x3e,
    0xc4, 0xe7, 0x36, 0xbf, 0x2b, 0x0d, 0xdd, 0x3d, 0xfa, 0x48,
    0xdf, 0x3e, 0x92, 0xfd, 0xa5, 0xbe, 0xa8, 0x2d, 0x92, 0xbe,
    0x47, 0xbb, 0x1c, 0x3c, 0x7c, 0x3a, 0xfb, 0xbd, 0x1a, 0xb5,
    0xc2, 0xbd, 0x9a, 0x0e, 0x6b, 0x3f, 0xef, 0x4f, 0x9b, 0x3d,
    0x6b, 0x1f, 0xa7, 0x3c, 0x2b, 0xda, 0x5e, 0xbe, 0x7f, 0xc8,
    0x27, 0xbe, 0x92, 0x06, 0x28, 0xbe, 0xa8, 0xb8, 0x28, 0x3f,
    0x82, 0x4d, 0xc6, 0x3e, 0x71, 0x8e, 0xac, 0xbe, 0xc8, 0xdc,
    0x17, 0xbe, 0x21, 0x38, 0x8d, 0xbe, 0xde, 0x9f, 0x3a, 0x3b,
    0xc0, 0xab, 0xc0, 0xbf, 0xa8, 0x3e, 0x27, 0x3e, 0x91, 0x4a,
    0x72, 0x3e, 0x7d, 0x52, 0xa0, 0x3e, 0x5c, 0x5d, 0xcb, 0xbd,
    0x1a, 0xd8, 0x82, 0xbd, 0x90, 0x95, 0xbe, 0x3f, 0x4a, 0x54,
    0x1b, 0xbe, 0xd7, 0x23, 0x05, 0x3e, 0xae, 0xf2, 0x66, 0xbe,
    0x13, 0xa9, 0x3b, 0xbc, 0xeb, 0xd7, 0xf4, 0x3c, 0xce, 0xc7,
    0x72, 0x3f, 0xfa, 0x7d, 0xa7, 0xbd, 0xe9, 0xae, 0x33, 0xbf,
    0xed, 0xc8, 0x21, 0x3e, 0x77, 0xb0, 0xeb, 0x3c, 0x99, 0x29,
    0x56, 0xbc, 0xd4, 0xfc, 0x00, 0x3d, 0x0c, 0x0a, 0x95, 0xbe,
    0xb4, 0xbb, 0xa4, 0xbe, 0x82, 0xd1, 0x1c, 0x3e, 0x1d, 0x98,
    0x29, 0xbf, 0xf4, 0x82, 0x4f, 0x39, 0x44, 0xb9, 0x1c, 0xbe,
    0xc0, 0x13, 0xde, 0xbc, 0xf6, 0x4d, 0x4b, 0x3f, 0xb8, 0xdc,
    0x09, 0x3e, 0x63, 0x30, 0xe9, 0x3d, 0xb6, 0x85, 0x96, 0xbd,
    0x06, 0x85, 0xe3, 0xbd, 0x78, 0xaa, 0x65, 0xbe, 0xc3, 0xea,
    0x71, 0xbf, 0x0d, 0xfe, 0x6e, 0x3e, 0xe4, 0xf2, 0x01, 0x40,
    0xf2, 0x4e, 0x3f, 0xbe, 0xa8, 0x47, 0xbd, 0x3f, 0xa3, 0x2e,
    0x07, 0xbe, 0xb8, 0x02, 0x19, 0xbe, 0x5b, 0x1f, 0x4e, 0x3d,
    0x28, 0x74, 0xac, 0xbd, 0x10, 0x13, 0x74, 0xbe, 0xfb, 0x7a,
    0x3f, 0x3f, 0x50, 0xfa, 0x04, 0x3e, 0x37, 0x2d, 0x21, 0xbc,
    0x84, 0x2e, 0x9e, 0x3d, 0x8c, 0x37, 0xf7, 0xbe, 0xda, 0xb4,
    0x5f, 0x3d, 0x53, 0x82, 0x2a, 0xbe, 0x91, 0xb0, 0x91, 0xbe,
    0x21, 0x0d, 0xc7, 0x3d, 0x32, 0x59, 0xd8, 0xbd, 0x06, 0xc3,
    0x99, 0xbd, 0xdc, 0x9e, 0xac, 0xbd, 0xf0, 0xcf, 0xc2, 0x3d,
    0x99, 0xeb, 0x77, 0x3d, 0x17, 0x76, 0x61, 0x3f, 0xdc, 0x96,
    0x8a, 0x3d, 0x8a, 0xea, 0x61, 0x3f, 0x9d, 0xef, 0x7d, 0xbd,
    0x18, 0x60, 0xb8, 0xbd, 0x12, 0xcc, 0x8d, 0xbe, 0xb1, 0x1b,
    0x4e, 0xbf, 0x06, 0x1b, 0x42, 0x3e, 0xa9, 0x4c, 0xeb, 0x3f,
    0xf5, 0x32, 0x33, 0xbe, 0x44, 0x52, 0x35, 0x3f, 0xfc, 0x76,
    0xf4, 0xbe, 0x00, 0x00, 0x00, 0x00, 0x71, 0x3c, 0x99, 0x3d,
    0xfe, 0xa4, 0x69, 0x3e, 0x00, 0x00, 0x00, 0x00, 0x4e, 0x73,
    0x80, 0x3e, 0xd5, 0xe7, 0x5b, 0x3e, 0x40, 0xc6, 0x3d, 0xbe,
    0xb9, 0x3b, 0xb1, 0x39, 0x27, 0x64, 0xde, 0xbe, 0xf8, 0x85,
    0x6c, 0xbc, 0x93, 0xe3, 0x56, 0xbe, 0x00, 0x00, 0x00, 0x00,
    0x48, 0xe8, 0x34, 0xbd, 0x00, 0x00, 0x00, 0x00, 0xc8, 0x5d,
    0x91, 0x3e, 0x00, 0x00, 0x00, 0x00, 0x93, 0x06, 0xd1, 0xbe,
    0xb6, 0xd0, 0x35, 0xbe, 0x3c, 0x65, 0x92, 0xbd, 0x70, 0xc9,
    0x76, 0x3d, 0xc8, 0xcf, 0x7f, 0x3e, 0x48, 0x38, 0x26, 0x3d,
    0x64, 0x8d, 0x2b, 0x3e, 0x00, 0x00, 0x00, 0x00, 0x08, 0x4c,
    0xce, 0x3c, 0xc2, 0x84, 0xd4, 0xbc, 0x00, 0x00, 0x00, 0x00,
    0x8b, 0x78, 0xfe, 0x3d, 0xdb, 0xe1, 0xe1, 0x3b, 0x9a, 0x5f,
    0xca, 0xbc, 0x4f, 0x35, 0x90, 0x3e, 0x3c, 0xff, 0x2d, 0xbd,
    0x00, 0x00, 0x00, 0x00, 0x2f, 0xe9, 0x16, 0xbf, 0xd4, 0x6a,
    0xfd, 0xbd, 0x85, 0x8d, 0x4b, 0xbd, 0x1a, 0x02, 0x86, 0xbe,
    0xc5, 0xac, 0xa5, 0x3e, 0x78, 0x2b, 0x44, 0xbd, 0x04, 0x49,
    0x1c, 0xbd, 0xdf, 0xf6, 0xe9, 0x3d, 0xe4, 0x85, 0x7a, 0x3e,
    0x00, 0x00, 0x00, 0x00, 0x77, 0xf7, 0x39, 0xbd, 0xfb, 0xf6,
    0x12, 0xbe, 0x00, 0x00, 0x00, 0x00, 0xfe, 0x9c, 0xcc, 0x3e,
    0x6b, 0xf5, 0x58, 0xbf, 0x51, 0x5d, 0x0d, 0xbf, 0xca, 0xc9,
    0x6e, 0xbd, 0x00, 0x00, 0x00, 0x00, 0x9c, 0x5c, 0x41, 0xbb,
    0x0a, 0x23, 0x0d, 0xbe, 0xf1, 0x5a, 0x37, 0x3e, 0x00, 0x00,
    0x00, 0x00, 0xc7, 0x25, 0xe2, 0xbd, 0x00, 0x00, 0x00, 0x00,
    0xb4, 0xd9, 0x17, 0xbe, 0xbc, 0x86, 0x20, 0x3d, 0x2b, 0x8c,
    0x74, 0xbe, 0x00, 0x00, 0x00, 0x00, 0x25, 0xb7, 0x75, 0x3e,
    0x95, 0xc4, 0x44, 0xbf, 0x0a, 0x68, 0x3f, 0x3e, 0x73, 0x85,
    0x01, 0xbe, 0xab, 0xd8, 0x20, 0x3f, 0x38, 0x12, 0xbf, 0xbe,
    0x94, 0x65, 0x14, 0x3e, 0xd8, 0x32, 0x80, 0xbe, 0xf5, 0xea,
    0x82, 0xbe, 0xb6, 0x66, 0x09, 0x3e, 0xd7, 0x22, 0xba, 0x3b,
    0x41, 0x79, 0x0c, 0x40, 0x02, 0x56, 0x20, 0xbe, 0xd1, 0x14,
    0xc7, 0x3e, 0x2a, 0x01, 0x5a, 0xbe, 0x70, 0x48, 0x7b, 0x3d,
    0x44, 0x09, 0x82, 0xbd, 0x42, 0x85, 0xb6, 0x3e, 0x22, 0xff,
    0x97, 0x3e, 0xd2, 0xb1, 0x29, 0x40, 0x78, 0x4d, 0x6a, 0xbd,
    0x7f, 0xd6, 0x60, 0xbe, 0xbe, 0x7b, 0x16, 0x3f, 0x26, 0xba,
    0x2b, 0xbd, 0x1d, 0x4b, 0xd2, 0xbc, 0x58, 0x3b, 0x03, 0xbc,
    0x4e, 0xf2, 0x6f, 0xbe, 0x28, 0x0f, 0x80, 0x3e, 0x35, 0x3a,
    0x70, 0xbe, 0xb8, 0xdc, 0x00, 0xbd, 0xc3, 0x38, 0x85, 0x3e,
    0x60, 0x9d, 0x2a, 0x3b, 0xf8, 0xcc, 0x7d, 0xbe, 0x29, 0xfb,
    0xa6, 0xc0, 0x73, 0x5e, 0x0f, 0x3e, 0x4c, 0x06, 0xb9, 0x3d,
    0x87, 0xfa, 0x18, 0x41, 0xa9, 0xda, 0xac, 0xbd, 0xd9, 0x5f,
    0x44, 0x3e, 0xf7, 0x49, 0x4c, 0x3e, 0x29, 0x1d, 0xe8, 0xbf,
    0x95, 0x6f, 0x66, 0x3e, 0xfb, 0xd3, 0x91, 0x3d, 0x76, 0xc0,
    0x21, 0x3d, 0xa4, 0x6d, 0xc3, 0xbd, 0x20, 0x31, 0x8e, 0xbd,
    0x36, 0x99, 0x18, 0x3e, 0xc5, 0xa7, 0x49, 0xbe, 0xf0, 0x75,
    0x97, 0x3e, 0x6f, 0x46, 0x4d, 0x3f, 0x11, 0xe5, 0xff, 0x41,
    0x39, 0xcd, 0x39, 0x40, 0xe8, 0x7a, 0x32, 0x3d, 0x88, 0x47,
    0x8f, 0xbd, 0xf5, 0xc5, 0x6a, 0x3e, 0x1c, 0xb1, 0x96, 0xbe,
    0x0a, 0xe6, 0x86, 0xbe, 0x8f, 0x40, 0x77, 0xbe, 0x5a, 0x89,
    0x91, 0xbd, 0x7b, 0x5d, 0x1e, 0xbe, 0x3f, 0xb7, 0xc9, 0xbc,
    0x27, 0x31, 0x88, 0x3e, 0x03, 0xf4, 0x5b, 0x3e, 0xf0, 0x4a,
    0x06, 0x3d, 0xf4, 0x5a, 0x54, 0xbe, 0xde, 0x87, 0xe7, 0x41,
    0x11, 0x91, 0xf8, 0xbe, 0x4c, 0xe0, 0x54, 0xbd, 0xe6, 0x2a,
    0x24, 0x40, 0x31, 0xaf, 0x2b, 0x40, 0x56, 0xf7, 0x92, 0xbd,
    0x62, 0xdf, 0x33, 0x40, 0xb5, 0xd5, 0x17, 0x40, 0x8e, 0x6f,
    0x02, 0x3f, 0x3b, 0x56, 0x05, 0x3f, 0x60, 0x8f, 0xc8, 0x3e,
    0x31, 0xa9, 0xf7, 0x3d, 0xf3, 0xf9, 0xb3, 0x3f, 0x20, 0xa7,
    0xe5, 0xbc, 0xa2, 0xc2, 0xa9, 0xbc, 0x30, 0x7a, 0xb0, 0xbc,
    0xb5, 0x7b, 0xb3, 0x3f, 0xb5, 0x55, 0x06, 0xbe, 0xd5, 0x7d,
    0x74, 0x3f, 0x7d, 0xbb, 0x7d, 0x3f, 0x69, 0xf2, 0xdd, 0x3d,
    0x1f, 0xed, 0x10, 0x40, 0x52, 0xcf, 0x23, 0x40, 0xe7, 0x4b,
    0xe8, 0x3f, 0xb7, 0x26, 0xd7, 0x3f, 0xc8, 0x6c, 0xdf, 0xbd,
    0x01, 0x02, 0xbd, 0x3f, 0xf1, 0x41, 0x4e, 0x3d, 0x74, 0x1e,
    0xd0, 0xbd, 0x54, 0x7e, 0x70, 0x3f, 0xd3, 0xb1, 0x9a, 0x3f,
    0x30, 0x46, 0xdc, 0xbd, 0x7e, 0xdf, 0xdc, 0x3f, 0x12, 0x3c,
    0xe6, 0x3f, 0x14, 0xb9, 0x7c, 0x3e, 0x87, 0x09, 0x81, 0x3e,
    0x37, 0x50, 0x2e, 0x3d, 0x74, 0xd5, 0xc8, 0x3d, 0x75, 0xf1,
    0x93, 0x3f, 0xd8, 0x9a, 0x34, 0x40, 0xc4, 0x54, 0x73, 0xbe,
    0xdc, 0x6c, 0x0a, 0x3d, 0x96, 0xf9, 0x8c, 0x3f, 0xb0, 0x7b,
    0x28, 0x40, 0x28, 0x1e, 0x72, 0x3e, 0x5d, 0x90, 0xbb, 0x3f,
    0x3d, 0x14, 0x33, 0xbe, 0x40, 0x22, 0x4e, 0x3e, 0xd1, 0xbf,
    0xe0, 0x3f, 0x62, 0x2c, 0x9c, 0x3e, 0x72, 0x61, 0x1c, 0x3f,
    0x03, 0x8e, 0x58, 0xbe, 0xdc, 0xa6, 0x4b, 0x3e, 0x95, 0xbe,
    0xcd, 0x3f, 0x5a, 0x54, 0xe4, 0xbd, 0x8e, 0x2b, 0x07, 0x40,
    0x7c, 0x53, 0x63, 0x3e, 0xb3, 0x65, 0x3f, 0xbe, 0x50, 0x32,
    0x55, 0x3d, 0xd5, 0xc2, 0xbe, 0x3f, 0x25, 0x0b, 0x06, 0x40,
    0xca, 0x85, 0x94, 0x3f, 0x92, 0xaf, 0x91, 0x3e, 0x77, 0x54,
    0x33, 0x40, 0xc4, 0x4a, 0x83, 0x3e, 0x3d, 0x48, 0xf8,
    0x3f, 0x46, 0x15, 0x1a, 0xbe, 0x8f, 0x7e, 0x71, 0x40  };
  return AI_HANDLE_PTR(s_nnactor_weights);
}
